#pragma once
#include <stdint.h>

alignas(16) const unsigned char mnist_cnn_int8_model[] = {
  0x1c, 0x00, 0x00, 0x00, 0x54, 0x46, 0x4c, 0x33, 0x14, 0x00, 0x20, 0x00,
  0x1c, 0x00, 0x18, 0x00, 0x14, 0x00, 0x10, 0x00, 0x0c, 0x00, 0x00, 0x00,
  0x08, 0x00, 0x04, 0x00, 0x14, 0x00, 0x00, 0x00, 0x1c, 0x00, 0x00, 0x00,
  0x98, 0x00, 0x00, 0x00, 0xf0, 0x00, 0x00, 0x00, 0x20, 0x08, 0x00, 0x00,
  0x30, 0x08, 0x00, 0x00, 0xbc, 0x13, 0x00, 0x00, 0x03, 0x00, 0x00, 0x00,
  0x01, 0x00, 0x00, 0x00, 0x10, 0x00, 0x00, 0x00, 0x00, 0x00, 0x0a, 0x00,
  0x10, 0x00, 0x0c, 0x00, 0x08, 0x00, 0x04, 0x00, 0x0a, 0x00, 0x00, 0x00,
  0x0c, 0x00, 0x00, 0x00, 0x1c, 0x00, 0x00, 0x00, 0x3c, 0x00, 0x00, 0x00,
  0x0f, 0x00, 0x00, 0x00, 0x73, 0x65, 0x72, 0x76, 0x69, 0x6e, 0x67, 0x5f,
  0x64, 0x65, 0x66, 0x61, 0x75, 0x6c, 0x74, 0x00, 0x01, 0x00, 0x00, 0x00,
  0x04, 0x00, 0x00, 0x00, 0x90, 0xff, 0xff, 0xff, 0x0c, 0x00, 0x00, 0x00,
  0x04, 0x00, 0x00, 0x00, 0x08, 0x00, 0x00, 0x00, 0x6f, 0x75, 0x74, 0x70,
  0x75, 0x74, 0x5f, 0x30, 0x00, 0x00, 0x00, 0x00, 0x01, 0x00, 0x00, 0x00,
  0x04, 0x00, 0x00, 0x00, 0xc2, 0xf7, 0xff, 0xff, 0x04, 0x00, 0x00, 0x00,
  0x0c, 0x00, 0x00, 0x00, 0x6b, 0x65, 0x72, 0x61, 0x73, 0x5f, 0x74, 0x65,
  0x6e, 0x73, 0x6f, 0x72, 0x00, 0x00, 0x00, 0x00, 0x02, 0x00, 0x00, 0x00,
  0x34, 0x00, 0x00, 0x00, 0x04, 0x00, 0x00, 0x00, 0xdc, 0xff, 0xff, 0xff,
  0x0f, 0x00, 0x00, 0x00, 0x04, 0x00, 0x00, 0x00, 0x13, 0x00, 0x00, 0x00,
  0x43, 0x4f, 0x4e, 0x56, 0x45, 0x52, 0x53, 0x49, 0x4f, 0x4e, 0x5f, 0x4d,
  0x45, 0x54, 0x41, 0x44, 0x41, 0x54, 0x41, 0x00, 0x08, 0x00, 0x0c, 0x00,
  0x08, 0x00, 0x04, 0x00, 0x08, 0x00, 0x00, 0x00, 0x0e, 0x00, 0x00, 0x00,
  0x04, 0x00, 0x00, 0x00, 0x13, 0x00, 0x00, 0x00, 0x6d, 0x69, 0x6e, 0x5f,
  0x72, 0x75, 0x6e, 0x74, 0x69, 0x6d, 0x65, 0x5f, 0x76, 0x65, 0x72, 0x73,
  0x69, 0x6f, 0x6e, 0x00, 0x10, 0x00, 0x00, 0x00, 0x2c, 0x07, 0x00, 0x00,
  0x24, 0x07, 0x00, 0x00, 0x0c, 0x07, 0x00, 0x00, 0xd4, 0x06, 0x00, 0x00,
  0x24, 0x06, 0x00, 0x00, 0xd4, 0x05, 0x00, 0x00, 0x44, 0x01, 0x00, 0x00,
  0x14, 0x01, 0x00, 0x00, 0xbc, 0x00, 0x00, 0x00, 0xb4, 0x00, 0x00, 0x00,
  0xac, 0x00, 0x00, 0x00, 0xa4, 0x00, 0x00, 0x00, 0x9c, 0x00, 0x00, 0x00,
  0x94, 0x00, 0x00, 0x00, 0x74, 0x00, 0x00, 0x00, 0x04, 0x00, 0x00, 0x00,
  0x7e, 0xf8, 0xff, 0xff, 0x04, 0x00, 0x00, 0x00, 0x60, 0x00, 0x00, 0x00,
  0x0c, 0x00, 0x00, 0x00, 0x08, 0x00, 0x0e, 0x00, 0x08, 0x00, 0x04, 0x00,
  0x08, 0x00, 0x00, 0x00, 0x10, 0x00, 0x00, 0x00, 0x28, 0x00, 0x00, 0x00,
  0x00, 0x00, 0x06, 0x00, 0x08, 0x00, 0x04, 0x00, 0x06, 0x00, 0x00, 0x00,
  0x04, 0x00, 0x00, 0x00, 0x01, 0x00, 0x00, 0x00, 0xeb, 0x03, 0x00, 0x00,
  0x0c, 0x00, 0x18, 0x00, 0x14, 0x00, 0x10, 0x00, 0x0c, 0x00, 0x04, 0x00,
  0x0c, 0x00, 0x00, 0x00, 0xbd, 0x5d, 0xeb, 0x8d, 0x91, 0xba, 0xc2, 0x45,
  0x02, 0x00, 0x00, 0x00, 0x02, 0x00, 0x00, 0x00, 0x04, 0x00, 0x00, 0x00,
  0x06, 0x00, 0x00, 0x00, 0x32, 0x2e, 0x32, 0x30, 0x2e, 0x30, 0x00, 0x00,
  0xea, 0xf8, 0xff, 0xff, 0x04, 0x00, 0x00, 0x00, 0x10, 0x00, 0x00, 0x00,
  0x31, 0x2e, 0x31, 0x34, 0x2e, 0x30, 0x00, 0x00, 0x00, 0x00, 0x00, 0x00,
  0x00, 0x00, 0x00, 0x00, 0xc8, 0xee, 0xff, 0xff, 0xcc, 0xee, 0xff, 0xff,
  0xd0, 0xee, 0xff, 0xff, 0xd4, 0xee, 0xff, 0xff, 0xd8, 0xee, 0xff, 0xff,
  0x1a, 0xf9, 0xff, 0xff, 0x04, 0x00, 0x00, 0x00, 0x48, 0x00, 0x00, 0x00,
  0x7f, 0x62, 0x67, 0x39, 0x34, 0x49, 0x22, 0x06, 0x22, 0x65, 0x27, 0x4b,
  0x40, 0x2a, 0x43, 0x78, 0x58, 0x7f, 0x9e, 0x81, 0xd4, 0x39, 0x20, 0x0a,
  0x59, 0x39, 0x18, 0x04, 0xbd, 0x81, 0x33, 0x0c, 0xeb, 0x2f, 0x4e, 0x28,
  0x50, 0x0d, 0xd4, 0x5a, 0x15, 0x81, 0x61, 0x01, 0x89, 0x47, 0x44, 0x24,
  0x81, 0x9c, 0xcf, 0x29, 0x21, 0x0d, 0x29, 0x32, 0x48, 0x1d, 0x26, 0x48,
  0x9d, 0x81, 0xc6, 0x35, 0x24, 0x3d, 0x46, 0x2c, 0x41, 0x6c, 0x59, 0x7f,
  0x6e, 0xf9, 0xff, 0xff, 0x04, 0x00, 0x00, 0x00, 0x20, 0x00, 0x00, 0x00,
  0x5b, 0x62, 0x00, 0x00, 0xf8, 0xff, 0xff, 0xff, 0x69, 0xff, 0xff, 0xff,
  0x6a, 0xff, 0xff, 0xff, 0xe7, 0xff, 0xff, 0xff, 0xc4, 0xff, 0xff, 0xff,
  0x99, 0x03, 0x00, 0x00, 0xf7, 0xff, 0xff, 0xff, 0x9a, 0xf9, 0xff, 0xff,
  0x04, 0x00, 0x00, 0x00, 0x80, 0x04, 0x00, 0x00, 0xe8, 0xde, 0xdc, 0xde,
  0x81, 0xff, 0x18, 0xe2, 0x08, 0x0c, 0x11, 0x01, 0xe8, 0x61, 0x1e, 0x09,
  0xfd, 0xeb, 0x22, 0x35, 0xf7, 0x70, 0x2f, 0xfa, 0x01, 0xf0, 0x37, 0x44,
  0xbc, 0x1c, 0xf6, 0xf6, 0x04, 0xfb, 0x4e, 0x40, 0xed, 0x28, 0x39, 0xf8,
  0x05, 0xf7, 0x57, 0x4d, 0xda, 0x0e, 0x2a, 0xfd, 0xf0, 0x11, 0x10, 0x23,
  0x35, 0xc5, 0x31, 0x15, 0xf6, 0x04, 0x40, 0x40, 0x09, 0x4c, 0x42, 0x07,
  0xf5, 0x0f, 0x3c, 0x3d, 0xf8, 0x76, 0x50, 0x13, 0xef, 0x07, 0xf6, 0xe6,
  0xcc, 0x59, 0x24, 0x06, 0x06, 0x06, 0x27, 0x22, 0xe5, 0x66, 0x2a, 0x09,
  0x18, 0x10, 0x06, 0x06, 0x05, 0x48, 0x23, 0x16, 0x06, 0xef, 0x66, 0x4e,
  0xd6, 0x46, 0x47, 0xfe, 0xfa, 0x03, 0x3c, 0x2a, 0xd1, 0x2d, 0x4e, 0xf7,
  0xf1, 0xe4, 0x2a, 0x20, 0x17, 0x20, 0x45, 0xe4, 0xea, 0x06, 0x22, 0x2d,
  0x05, 0x58, 0x05, 0x0e, 0xef, 0x18, 0x3b, 0x2a, 0xe7, 0x7f, 0xfa, 0x0d,
  0xe6, 0x0d, 0x30, 0x20, 0x18, 0x08, 0x8a, 0x1e, 0xf5, 0xff, 0x1d, 0x52,
  0x65, 0xff, 0x28, 0x20, 0xd8, 0x05, 0x43, 0x7c, 0x7e, 0xd7, 0x30, 0x0f,
  0xfb, 0x1b, 0x01, 0x55, 0x4d, 0xee, 0x1c, 0x1e, 0x05, 0xf5, 0x4f, 0x46,
  0x2d, 0x2e, 0x5e, 0x05, 0xe2, 0x09, 0x73, 0x6f, 0x7d, 0x7f, 0x57, 0x0e,
  0x0b, 0x09, 0x4f, 0x57, 0x3c, 0x23, 0x52, 0x04, 0x11, 0xf7, 0xda, 0x19,
  0x3f, 0x91, 0x29, 0xff, 0x0f, 0x00, 0x2c, 0x54, 0x77, 0x86, 0x33, 0xfc,
  0xff, 0x01, 0xed, 0x35, 0x4a, 0xa5, 0x28, 0x14, 0x0a, 0x0d, 0xd6, 0xda,
  0x37, 0xd2, 0xf7, 0x05, 0x06, 0x0f, 0xdc, 0xf4, 0x09, 0x81, 0xd5, 0x08,
  0xed, 0xe1, 0xfa, 0x05, 0x0f, 0xb3, 0xdc, 0xd9, 0x06, 0x0f, 0xc3, 0xd5,
  0x22, 0x91, 0xde, 0x09, 0x0a, 0x12, 0xb9, 0xd9, 0xff, 0xbf, 0xd8, 0x07,
  0xf4, 0xea, 0xf2, 0x01, 0x0c, 0xf0, 0xbf, 0xdb, 0x0f, 0x18, 0x0b, 0x10,
  0x2d, 0x02, 0x05, 0x10, 0x0b, 0x07, 0xdf, 0xdd, 0xfd, 0x08, 0x05, 0x02,
  0xf9, 0xeb, 0xd0, 0xe1, 0x09, 0xdb, 0xe3, 0xcc, 0xf9, 0xf0, 0xdf, 0xeb,
  0xf9, 0xa7, 0xbd, 0xee, 0x06, 0x01, 0xd7, 0xda, 0x31, 0x81, 0xc0, 0x06,
  0xff, 0xff, 0xe4, 0xd4, 0x3b, 0x93, 0xbb, 0x04, 0xfd, 0xfb, 0xd0, 0xde,
  0x16, 0xb1, 0xe2, 0xfd, 0x05, 0x06, 0xdf, 0xe2, 0x37, 0xb4, 0xf2, 0x06,
  0x05, 0x00, 0xe1, 0xe6, 0x38, 0xca, 0xe2, 0x02, 0x06, 0x0e, 0x06, 0x07,
  0x21, 0xfd, 0xd6, 0x0a, 0x02, 0x08, 0x03, 0x03, 0x36, 0x04, 0xd9, 0x07,
  0x02, 0x00, 0xf5, 0xf5, 0x27, 0x12, 0xe9, 0x08, 0xff, 0xf9, 0xf2, 0xf2,
  0x0a, 0x81, 0xdc, 0xf2, 0x00, 0xfc, 0x03, 0x07, 0x33, 0xab, 0xf3, 0x03,
  0x03, 0x00, 0xfa, 0xff, 0x15, 0xc6, 0x0a, 0x02, 0xfc, 0xff, 0xfa, 0x0c,
  0xff, 0xce, 0xea, 0x01, 0x02, 0xfa, 0xfc, 0x12, 0x27, 0xcf, 0xf5, 0x03,
  0x00, 0x01, 0xf8, 0x0d, 0x0c, 0x07, 0xf4, 0x03, 0x0b, 0x04, 0x19, 0x1e,
  0x18, 0x2e, 0xfa, 0x0c, 0x09, 0x0c, 0x26, 0x37, 0x30, 0x34, 0xfa, 0x0d,
  0x0b, 0x07, 0x20, 0x29, 0x1a, 0x34, 0xfa, 0x0e, 0x0c, 0x0a, 0xed, 0xff,
  0xf7, 0x36, 0x0a, 0x00, 0x06, 0x0e, 0x06, 0x15, 0x17, 0x45, 0xf5, 0xfd,
  0x04, 0xf7, 0xf1, 0x04, 0xf2, 0x2a, 0xf7, 0x09, 0x1d, 0x03, 0x0b, 0x19,
  0x13, 0xaa, 0x24, 0x09, 0x1d, 0x10, 0xf9, 0x0d, 0x07, 0x97, 0x1a, 0x00,
  0x19, 0xfd, 0x05, 0x1e, 0x17, 0xa2, 0x33, 0xfb, 0x0f, 0x0f, 0x20, 0x26,
  0x05, 0x64, 0x05, 0x02, 0x0d, 0x1a, 0x45, 0x54, 0x16, 0x7f, 0xfe, 0x0a,
  0x13, 0x10, 0x36, 0x3c, 0xf9, 0x5f, 0x00, 0x0d, 0xd1, 0xdf, 0x48, 0x36,
  0x81, 0x1b, 0xe4, 0xe9, 0xe3, 0xfa, 0x39, 0x2e, 0xc4, 0x46, 0x26, 0xfc,
  0xdb, 0xe3, 0x25, 0x28, 0xdc, 0x46, 0x01, 0xe0, 0xfe, 0x03, 0x11, 0x08,
  0xfd, 0x1e, 0x27, 0x0a, 0xfb, 0x08, 0x0c, 0x10, 0xb8, 0x2b, 0x3d, 0x05,
  0xfd, 0x03, 0x13, 0x1a, 0xb4, 0x11, 0x03, 0x05, 0x00, 0x0b, 0x15, 0x25,
  0xe7, 0x0f, 0xfe, 0x08, 0xfe, 0x07, 0x1d, 0x1d, 0xad, 0x2a, 0x10, 0x08,
  0x07, 0x03, 0x2b, 0x3a, 0xba, 0x44, 0x3c, 0x0a, 0x01, 0x09, 0x12, 0x26,
  0xf6, 0x19, 0x1c, 0x03, 0x03, 0x03, 0x06, 0x15, 0xea, 0x0a, 0x0e, 0xfd,
  0x01, 0x01, 0xed, 0x00, 0xf7, 0xf7, 0x04, 0x02, 0x04, 0x04, 0x0f, 0x18,
  0xde, 0x33, 0xfd, 0x05, 0xfd, 0x09, 0x05, 0x0a, 0xd1, 0x29, 0xf6, 0x09,
  0x02, 0x06, 0xfa, 0xff, 0xe7, 0x14, 0xe6, 0x01, 0x00, 0xf3, 0x11, 0x1d,
  0xd9, 0xfa, 0x22, 0xef, 0x02, 0xf9, 0xcd, 0xbf, 0xe5, 0xef, 0x28, 0xf4,
  0xff, 0xef, 0x81, 0x90, 0x00, 0xde, 0x1d, 0xeb, 0x1c, 0x1a, 0x11, 0x0d,
  0xf0, 0x74, 0x44, 0x1d, 0x15, 0x15, 0x00, 0xec, 0xd2, 0x62, 0x5e, 0x17,
  0x1e, 0x13, 0x0d, 0x15, 0xe3, 0x5c, 0x54, 0x1e, 0xfc, 0x06, 0xc4, 0xf8,
  0xdc, 0x1e, 0x1d, 0x01, 0x07, 0x06, 0x8b, 0x81, 0xee, 0xe5, 0x12, 0x0b,
  0xff, 0xf4, 0xcc, 0xc8, 0x1b, 0xf8, 0x0e, 0xf5, 0xe1, 0xd1, 0x6b, 0x12,
  0xb9, 0x00, 0x3a, 0xd2, 0xe5, 0xcd, 0x1c, 0xf9, 0xce, 0x1b, 0x52, 0xc0,
  0xdf, 0xdc, 0xa8, 0xa2, 0x9a, 0xb7, 0x02, 0xc8, 0x2d, 0x2b, 0x31, 0x46,
  0x2b, 0xe6, 0xe6, 0x1b, 0x29, 0x1d, 0x3c, 0x3b, 0xd5, 0xda, 0xf2, 0x1c,
  0x07, 0x09, 0x57, 0x59, 0xeb, 0xcd, 0xbc, 0x08, 0x1a, 0x02, 0xd0, 0xc7,
  0x04, 0x13, 0x0f, 0xf9, 0x20, 0x06, 0xe5, 0xfa, 0xd5, 0x4a, 0x4b, 0xf7,
  0x28, 0x19, 0x27, 0x31, 0xca, 0x24, 0x1e, 0x10, 0xfc, 0xe6, 0xd9, 0xe2,
  0xa8, 0x44, 0xfa, 0xcb, 0x04, 0x02, 0xdd, 0xdd, 0xc4, 0x53, 0xfb, 0xe8,
  0x07, 0xf9, 0xaf, 0x81, 0x0a, 0x4e, 0x0f, 0xef, 0xf7, 0x01, 0x29, 0x2b,
  0x3a, 0x29, 0x28, 0x04, 0xfa, 0x0a, 0x40, 0x3c, 0x77, 0x1f, 0x24, 0x12,
  0xf6, 0x08, 0x32, 0x33, 0x36, 0x1d, 0x26, 0x03, 0xf3, 0x02, 0x44, 0x3f,
  0x48, 0x32, 0x14, 0xfd, 0xfe, 0xfd, 0x3c, 0x3e, 0x7f, 0x34, 0x19, 0x02,
  0xfd, 0x00, 0x3d, 0x35, 0x4a, 0x2d, 0x20, 0x0d, 0x08, 0xf8, 0x05, 0x06,
  0x33, 0xff, 0x2a, 0x03, 0x05, 0xff, 0x12, 0x25, 0x66, 0xf3, 0x31, 0x03,
  0x0d, 0x05, 0x0b, 0x0d, 0x22, 0xfd, 0x28, 0xff, 0x08, 0xf5, 0xe7, 0xd3,
  0xd0, 0xe8, 0xfa, 0xea, 0x18, 0x07, 0xdb, 0xd1, 0xee, 0xe4, 0x0b, 0x04,
  0x0b, 0xf9, 0xec, 0xfb, 0x21, 0xf6, 0x02, 0xf2, 0x05, 0x0a, 0xfd, 0xfc,
  0x09, 0xda, 0xe4, 0xfe, 0x0d, 0x0c, 0x1f, 0x13, 0xf3, 0xfa, 0xf9, 0x0b,
  0xfd, 0xff, 0x1b, 0x0a, 0x18, 0x07, 0xed, 0xf4, 0x17, 0x00, 0xa8, 0x95,
  0x02, 0x81, 0x15, 0xfd, 0x12, 0xff, 0x9b, 0xbc, 0x02, 0xc0, 0x0e, 0xfd,
  0x07, 0xf2, 0xbb, 0xd0, 0x04, 0x00, 0xe8, 0xe5, 0x0c, 0x05, 0x16, 0x08,
  0xbe, 0x25, 0x28, 0x0e, 0x0b, 0x0f, 0x10, 0xf7, 0xe5, 0x31, 0x2b, 0x0d,
  0x10, 0x0e, 0xd1, 0xd2, 0x00, 0x2c, 0x23, 0x0c, 0xfc, 0xf4, 0x53, 0x2d,
  0x9d, 0x2e, 0x4b, 0xff, 0xf1, 0xf1, 0x37, 0x0c, 0x9f, 0x36, 0x36, 0xf9,
  0xf1, 0xef, 0x10, 0x00, 0xe6, 0x1c, 0x0b, 0xf3, 0xe1, 0x04, 0x30, 0x2a,
  0xa8, 0x6e, 0xb9, 0x15, 0xe7, 0x10, 0x36, 0x22, 0xf0, 0x7f, 0x87, 0x11,
  0xe6, 0x0c, 0x0e, 0x04, 0x09, 0x15, 0x93, 0x1c, 0xfa, 0x10, 0xfe, 0x20,
  0x2e, 0x5b, 0x03, 0x17, 0xf8, 0xfc, 0x17, 0x15, 0x79, 0x65, 0x18, 0x05,
  0xf5, 0x0c, 0x09, 0x17, 0x2c, 0x5d, 0xfd, 0x17, 0x0b, 0x11, 0x0d, 0x09,
  0x3f, 0x2f, 0xf8, 0x10, 0xf8, 0x0b, 0x21, 0x08, 0x7f, 0x43, 0xf7, 0x14,
  0x02, 0x0c, 0x0e, 0x04, 0x3e, 0x32, 0xf7, 0x1d, 0x0b, 0x04, 0xe6, 0xfc,
  0x20, 0x38, 0x0c, 0x05, 0x13, 0x03, 0x04, 0xfa, 0x6d, 0x4d, 0x20, 0xfd,
  0x09, 0xfe, 0xe2, 0x00, 0x1f, 0x42, 0x08, 0x10, 0x03, 0x0b, 0x2f, 0x20,
  0xe5, 0xaa, 0xd6, 0x11, 0x02, 0x19, 0x1d, 0x23, 0x14, 0xb4, 0xc7, 0x1a,
  0x01, 0x0b, 0x45, 0x1e, 0x03, 0xda, 0xd4, 0x0d, 0xfa, 0xff, 0xad, 0xc3,
  0xf0, 0x24, 0x19, 0xee, 0x07, 0x06, 0xbf, 0xea, 0x2e, 0x22, 0x00, 0x0d,
  0x05, 0x06, 0xe4, 0xd5, 0xfc, 0x1e, 0x17, 0x00, 0xfa, 0x0a, 0x0a, 0xee,
  0xec, 0x9b, 0xe0, 0x04, 0xf4, 0x0d, 0xdf, 0xfb, 0xf7, 0x81, 0xbd, 0x14,
  0xff, 0x0d, 0x0f, 0xf4, 0xe8, 0xb3, 0xf9, 0x07, 0x26, 0xfe, 0xff, 0xff,
  0x04, 0x00, 0x00, 0x00, 0x40, 0x00, 0x00, 0x00, 0x0b, 0x00, 0x00, 0x00,
  0x12, 0xff, 0xff, 0xff, 0xe6, 0xfb, 0xff, 0xff, 0x8e, 0x00, 0x00, 0x00,
  0x37, 0x00, 0x00, 0x00, 0xdc, 0xff, 0xff, 0xff, 0xa0, 0x01, 0x00, 0x00,
  0x04, 0xff, 0xff, 0xff, 0xf9, 0xff, 0xff, 0xff, 0x18, 0xff, 0xff, 0xff,
  0x42, 0x01, 0x00, 0x00, 0xfd, 0xfd, 0xff, 0xff, 0x73, 0x01, 0x00, 0x00,
  0xee, 0xfe, 0xff, 0xff, 0x91, 0xfe, 0xff, 0xff, 0xa9, 0xff, 0xff, 0xff,
  0x72, 0xfe, 0xff, 0xff, 0x04, 0x00, 0x00, 0x00, 0xa0, 0x00, 0x00, 0x00,
  0xe2, 0xcc, 0x1d, 0xc7, 0x7f, 0x41, 0xf9, 0x37, 0xe3, 0x36, 0xc9, 0x21,
  0x9a, 0xa0, 0x15, 0xf7, 0xde, 0xc1, 0xa5, 0x70, 0x15, 0x04, 0x17, 0x29,
  0x1d, 0x7f, 0xdd, 0xa8, 0x6c, 0x9b, 0xa2, 0x6e, 0x81, 0xf0, 0x1c, 0x82,
  0xd6, 0x04, 0xb8, 0x1c, 0x66, 0x5c, 0x65, 0xe2, 0xf0, 0x17, 0x1c, 0xca,
  0x42, 0x44, 0xf1, 0x44, 0x81, 0xea, 0xf6, 0x1e, 0xbe, 0xfd, 0x37, 0xf5,
  0xca, 0x63, 0xc8, 0xd0, 0x12, 0x04, 0xe9, 0xf7, 0x26, 0x0c, 0x11, 0x81,
  0x19, 0x19, 0xd9, 0xf9, 0xfb, 0x21, 0x0f, 0xed, 0x2a, 0x0f, 0xea, 0xb9,
  0x81, 0x12, 0x1a, 0xfd, 0x35, 0x26, 0x47, 0xd7, 0xe7, 0x55, 0xc4, 0xd3,
  0xb1, 0xda, 0x0f, 0x9c, 0x1f, 0xef, 0xed, 0xad, 0x7f, 0x19, 0x0a, 0x1b,
  0x14, 0xbd, 0x26, 0x14, 0xfd, 0xe7, 0xe4, 0x12, 0x1b, 0xe6, 0xeb, 0x7f,
  0xe3, 0xf8, 0x0e, 0xf0, 0x2d, 0x0f, 0xfe, 0xf9, 0x44, 0x43, 0xf9, 0xa6,
  0xa6, 0x34, 0x20, 0xd9, 0x9f, 0x81, 0x0c, 0x1a, 0xcd, 0xcc, 0x16, 0x07,
  0x27, 0x25, 0x2f, 0x04, 0xd9, 0xf0, 0x07, 0x35, 0xd5, 0x81, 0xc0, 0xfe,
  0x36, 0x48, 0x0e, 0xf6, 0x1e, 0xff, 0xff, 0xff, 0x04, 0x00, 0x00, 0x00,
  0x28, 0x00, 0x00, 0x00, 0x3d, 0xfd, 0xff, 0xff, 0x09, 0x02, 0x00, 0x00,
  0x82, 0x00, 0x00, 0x00, 0x4a, 0xff, 0xff, 0xff, 0xe4, 0xff, 0xff, 0xff,
  0x03, 0x02, 0x00, 0x00, 0xd9, 0xfe, 0xff, 0xff, 0xa6, 0xff, 0xff, 0xff,
  0xf2, 0x00, 0x00, 0x00, 0x81, 0x01, 0x00, 0x00, 0x52, 0xff, 0xff, 0xff,
  0x04, 0x00, 0x00, 0x00, 0x08, 0x00, 0x00, 0x00, 0x01, 0x00, 0x00, 0x00,
  0x02, 0x00, 0x00, 0x00, 0x28, 0xf5, 0xff, 0xff, 0x2c, 0xf5, 0xff, 0xff,
  0x0f, 0x00, 0x00, 0x00, 0x4d, 0x4c, 0x49, 0x52, 0x20, 0x43, 0x6f, 0x6e,
  0x76, 0x65, 0x72, 0x74, 0x65, 0x64, 0x2e, 0x00, 0x01, 0x00, 0x00, 0x00,
  0x14, 0x00, 0x00, 0x00, 0x00, 0x00, 0x0e, 0x00, 0x18, 0x00, 0x14, 0x00,
  0x10, 0x00, 0x0c, 0x00, 0x08, 0x00, 0x04, 0x00, 0x0e, 0x00, 0x00, 0x00,
  0x14, 0x00, 0x00, 0x00, 0x1c, 0x00, 0x00, 0x00, 0x80, 0x01, 0x00, 0x00,
  0x84, 0x01, 0x00, 0x00, 0x88, 0x01, 0x00, 0x00, 0x04, 0x00, 0x00, 0x00,
  0x6d, 0x61, 0x69, 0x6e, 0x00, 0x00, 0x00, 0x00, 0x05, 0x00, 0x00, 0x00,
  0x1c, 0x01, 0x00, 0x00, 0xcc, 0x00, 0x00, 0x00, 0x98, 0x00, 0x00, 0x00,
  0x50, 0x00, 0x00, 0x00, 0x14, 0x00, 0x00, 0x00, 0x00, 0x00, 0x0e, 0x00,
  0x1a, 0x00, 0x14, 0x00, 0x10, 0x00, 0x0c, 0x00, 0x0b, 0x00, 0x04, 0x00,
  0x0e, 0x00, 0x00, 0x00, 0x1c, 0x00, 0x00, 0x00, 0x00, 0x00, 0x00, 0x09,
  0x1c, 0x00, 0x00, 0x00, 0x20, 0x00, 0x00, 0x00, 0x03, 0x00, 0x00, 0x00,
  0x00, 0x00, 0x06, 0x00, 0x08, 0x00, 0x04, 0x00, 0x06, 0x00, 0x00, 0x00,
  0x00, 0x00, 0x80, 0x3f, 0x01, 0x00, 0x00, 0x00, 0x0c, 0x00, 0x00, 0x00,
  0x01, 0x00, 0x00, 0x00, 0x0b, 0x00, 0x00, 0x00, 0xca, 0xff, 0xff, 0xff,
  0x14, 0x00, 0x00, 0x00, 0x00, 0x00, 0x00, 0x08, 0x10, 0x00, 0x00, 0x00,
  0x14, 0x00, 0x00, 0x00, 0x02, 0x00, 0x00, 0x00, 0xf8, 0xf5, 0xff, 0xff,
  0x01, 0x00, 0x00, 0x00, 0x0b, 0x00, 0x00, 0x00, 0x03, 0x00, 0x00, 0x00,
  0x0a, 0x00, 0x00, 0x00, 0x03, 0x00, 0x00, 0x00, 0x02, 0x00, 0x00, 0x00,
  0x00, 0x00, 0x0e, 0x00, 0x18, 0x00, 0x14, 0x00, 0x10, 0x00, 0x0c, 0x00,
  0x0b, 0x00, 0x04, 0x00, 0x0e, 0x00, 0x00, 0x00, 0x14, 0x00, 0x00, 0x00,
  0x00, 0x00, 0x00, 0x1b, 0x10, 0x00, 0x00, 0x00, 0x14, 0x00, 0x00, 0x00,
  0x01, 0x00, 0x00, 0x00, 0x3c, 0xf6, 0xff, 0xff, 0x01, 0x00, 0x00, 0x00,
  0x0a, 0x00, 0x00, 0x00, 0x02, 0x00, 0x00, 0x00, 0x09, 0x00, 0x00, 0x00,
  0x01, 0x00, 0x00, 0x00, 0xc2, 0xff, 0xff, 0xff, 0x10, 0x00, 0x00, 0x00,
  0x00, 0x00, 0x00, 0x01, 0x18, 0x00, 0x00, 0x00, 0x1c, 0x00, 0x00, 0x00,
  0xb4, 0xff, 0xff, 0xff, 0x00, 0x00, 0x00, 0x01, 0x02, 0x00, 0x00, 0x00,
  0x02, 0x00, 0x00, 0x00, 0x01, 0x00, 0x00, 0x00, 0x09, 0x00, 0x00, 0x00,
  0x03, 0x00, 0x00, 0x00, 0x08, 0x00, 0x00, 0x00, 0x05, 0x00, 0x00, 0x00,
  0x04, 0x00, 0x00, 0x00, 0x00, 0x00, 0x0e, 0x00, 0x14, 0x00, 0x00, 0x00,
  0x10, 0x00, 0x0c, 0x00, 0x0b, 0x00, 0x04, 0x00, 0x0e, 0x00, 0x00, 0x00,
  0x1c, 0x00, 0x00, 0x00, 0x00, 0x00, 0x00, 0x01, 0x24, 0x00, 0x00, 0x00,
  0x28, 0x00, 0x00, 0x00, 0x0c, 0x00, 0x10, 0x00, 0x00, 0x00, 0x0c, 0x00,
  0x08, 0x00, 0x07, 0x00, 0x0c, 0x00, 0x00, 0x00, 0x00, 0x00, 0x00, 0x01,
  0x02, 0x00, 0x00, 0x00, 0x02, 0x00, 0x00, 0x00, 0x01, 0x00, 0x00, 0x00,
  0x08, 0x00, 0x00, 0x00, 0x03, 0x00, 0x00, 0x00, 0x00, 0x00, 0x00, 0x00,
  0x07, 0x00, 0x00, 0x00, 0x06, 0x00, 0x00, 0x00, 0x01, 0x00, 0x00, 0x00,
  0x0c, 0x00, 0x00, 0x00, 0x01, 0x00, 0x00, 0x00, 0x00, 0x00, 0x00, 0x00,
  0x0d, 0x00, 0x00, 0x00, 0x40, 0x09, 0x00, 0x00, 0xe4, 0x08, 0x00, 0x00,
  0xfc, 0x07, 0x00, 0x00, 0x28, 0x07, 0x00, 0x00, 0x14, 0x06, 0x00, 0x00,
  0xf0, 0x04, 0x00, 0x00, 0x3c, 0x04, 0x00, 0x00, 0x78, 0x03, 0x00, 0x00,
  0xa4, 0x02, 0x00, 0x00, 0xb0, 0x01, 0x00, 0x00, 0x1c, 0x01, 0x00, 0x00,
  0x80, 0x00, 0x00, 0x00, 0x04, 0x00, 0x00, 0x00, 0x0a, 0xf7, 0xff, 0xff,
  0x00, 0x00, 0x00, 0x01, 0x18, 0x00, 0x00, 0x00, 0x20, 0x00, 0x00, 0x00,
  0x3c, 0x00, 0x00, 0x00, 0x0d, 0x00, 0x00, 0x00, 0x00, 0x00, 0x00, 0x09,
  0x50, 0x00, 0x00, 0x00, 0x02, 0x00, 0x00, 0x00, 0xff, 0xff, 0xff, 0xff,
  0x0a, 0x00, 0x00, 0x00, 0xec, 0xf6, 0xff, 0xff, 0x08, 0x00, 0x00, 0x00,
  0x10, 0x00, 0x00, 0x00, 0x01, 0x00, 0x00, 0x00, 0x80, 0xff, 0xff, 0xff,
  0xff, 0xff, 0xff, 0xff, 0x01, 0x00, 0x00, 0x00, 0x00, 0x00, 0x80, 0x3b,
  0x1b, 0x00, 0x00, 0x00, 0x53, 0x74, 0x61, 0x74, 0x65, 0x66, 0x75, 0x6c,
  0x50, 0x61, 0x72, 0x74, 0x69, 0x74, 0x69, 0x6f, 0x6e, 0x65, 0x64, 0x43,
  0x61, 0x6c, 0x6c, 0x5f, 0x31, 0x3a, 0x30, 0x00, 0x02, 0x00, 0x00, 0x00,
  0x01, 0x00, 0x00, 0x00, 0x0a, 0x00, 0x00, 0x00, 0x82, 0xf7, 0xff, 0xff,
  0x00, 0x00, 0x00, 0x01, 0x18, 0x00, 0x00, 0x00, 0x20, 0x00, 0x00, 0x00,
  0x3c, 0x00, 0x00, 0x00, 0x0c, 0x00, 0x00, 0x00, 0x00, 0x00, 0x00, 0x09,
  0x70, 0x00, 0x00, 0x00, 0x02, 0x00, 0x00, 0x00, 0xff, 0xff, 0xff, 0xff,
  0x0a, 0x00, 0x00, 0x00, 0x64, 0xf7, 0xff, 0xff, 0x08, 0x00, 0x00, 0x00,
  0x10, 0x00, 0x00, 0x00, 0x01, 0x00, 0x00, 0x00, 0x41, 0x00, 0x00, 0x00,
  0x00, 0x00, 0x00, 0x00, 0x01, 0x00, 0x00, 0x00, 0x00, 0x02, 0x45, 0x3e,
  0x38, 0x00, 0x00, 0x00, 0x73, 0x65, 0x71, 0x75, 0x65, 0x6e, 0x74, 0x69,
  0x61, 0x6c, 0x5f, 0x31, 0x2f, 0x64, 0x65, 0x6e, 0x73, 0x65, 0x5f, 0x31,
  0x2f, 0x4d, 0x61, 0x74, 0x4d, 0x75, 0x6c, 0x3b, 0x73, 0x65, 0x71, 0x75,
  0x65, 0x6e, 0x74, 0x69, 0x61, 0x6c, 0x5f, 0x31, 0x2f, 0x64, 0x65, 0x6e,
  0x73, 0x65, 0x5f, 0x31, 0x2f, 0x42, 0x69, 0x61, 0x73, 0x41, 0x64, 0x64,
  0x00, 0x00, 0x00, 0x00, 0x02, 0x00, 0x00, 0x00, 0x01, 0x00, 0x00, 0x00,
  0x0a, 0x00, 0x00, 0x00, 0x1a, 0xf8, 0xff, 0xff, 0x00, 0x00, 0x00, 0x01,
  0x18, 0x00, 0x00, 0x00, 0x20, 0x00, 0x00, 0x00, 0x40, 0x00, 0x00, 0x00,
  0x0b, 0x00, 0x00, 0x00, 0x00, 0x00, 0x00, 0x09, 0x68, 0x00, 0x00, 0x00,
  0x02, 0x00, 0x00, 0x00, 0xff, 0xff, 0xff, 0xff, 0x10, 0x00, 0x00, 0x00,
  0xfc, 0xf7, 0xff, 0xff, 0x08, 0x00, 0x00, 0x00, 0x14, 0x00, 0x00, 0x00,
  0x01, 0x00, 0x00, 0x00, 0x80, 0xff, 0xff, 0xff, 0xff, 0xff, 0xff, 0xff,
  0x00, 0x00, 0x00, 0x00, 0x01, 0x00, 0x00, 0x00, 0x18, 0xe8, 0xbe, 0x3d,
  0x2c, 0x00, 0x00, 0x00, 0x73, 0x65, 0x71, 0x75, 0x65, 0x6e, 0x74, 0x69,
  0x61, 0x6c, 0x5f, 0x31, 0x2f, 0x67, 0x6c, 0x6f, 0x62, 0x61, 0x6c, 0x5f,
  0x61, 0x76, 0x65, 0x72, 0x61, 0x67, 0x65, 0x5f, 0x70, 0x6f, 0x6f, 0x6c,
  0x69, 0x6e, 0x67, 0x32, 0x64, 0x5f, 0x31, 0x2f, 0x4d, 0x65, 0x61, 0x6e,
  0x00, 0x00, 0x00, 0x00, 0x02, 0x00, 0x00, 0x00, 0x01, 0x00, 0x00, 0x00,
  0x10, 0x00, 0x00, 0x00, 0xaa, 0xf8, 0xff, 0xff, 0x00, 0x00, 0x00, 0x01,
  0x18, 0x00, 0x00, 0x00, 0x28, 0x00, 0x00, 0x00, 0x44, 0x00, 0x00, 0x00,
  0x0a, 0x00, 0x00, 0x00, 0x00, 0x00, 0x00, 0x09, 0xc0, 0x00, 0x00, 0x00,
  0x04, 0x00, 0x00, 0x00, 0xff, 0xff, 0xff, 0xff, 0x07, 0x00, 0x00, 0x00,
  0x07, 0x00, 0x00, 0x00, 0x10, 0x00, 0x00, 0x00, 0x94, 0xf8, 0xff, 0xff,
  0x08, 0x00, 0x00, 0x00, 0x10, 0x00, 0x00, 0x00, 0x01, 0x00, 0x00, 0x00,
  0x80, 0xff, 0xff, 0xff, 0xff, 0xff, 0xff, 0xff, 0x01, 0x00, 0x00, 0x00,
  0x61, 0xcf, 0xcd, 0x3e, 0x80, 0x00, 0x00, 0x00, 0x73, 0x65, 0x71, 0x75,
  0x65, 0x6e, 0x74, 0x69, 0x61, 0x6c, 0x5f, 0x31, 0x2f, 0x63, 0x6f, 0x6e,
  0x76, 0x32, 0x64, 0x5f, 0x31, 0x5f, 0x32, 0x2f, 0x52, 0x65, 0x6c, 0x75,
  0x3b, 0x73, 0x65, 0x71, 0x75, 0x65, 0x6e, 0x74, 0x69, 0x61, 0x6c, 0x5f,
  0x31, 0x2f, 0x63, 0x6f, 0x6e, 0x76, 0x32, 0x64, 0x5f, 0x31, 0x5f, 0x32,
  0x2f, 0x42, 0x69, 0x61, 0x73, 0x41, 0x64, 0x64, 0x3b, 0x73, 0x65, 0x71,
  0x75, 0x65, 0x6e, 0x74, 0x69, 0x61, 0x6c, 0x5f, 0x31, 0x2f, 0x63, 0x6f,
  0x6e, 0x76, 0x32, 0x64, 0x5f, 0x31, 0x5f, 0x32, 0x2f, 0x63, 0x6f, 0x6e,
  0x76, 0x6f, 0x6c, 0x75, 0x74, 0x69, 0x6f, 0x6e, 0x3b, 0x73, 0x65, 0x71,
  0x75, 0x65, 0x6e, 0x74, 0x69, 0x61, 0x6c, 0x5f, 0x31, 0x2f, 0x63, 0x6f,
  0x6e, 0x76, 0x32, 0x64, 0x5f, 0x31, 0x5f, 0x32, 0x2f, 0x53, 0x71, 0x75,
  0x65, 0x65, 0x7a, 0x65, 0x00, 0x00, 0x00, 0x00, 0x04, 0x00, 0x00, 0x00,
  0x01, 0x00, 0x00, 0x00, 0x07, 0x00, 0x00, 0x00, 0x07, 0x00, 0x00, 0x00,
  0x10, 0x00, 0x00, 0x00, 0x9a, 0xf9, 0xff, 0xff, 0x00, 0x00, 0x00, 0x01,
  0x18, 0x00, 0x00, 0x00, 0x28, 0x00, 0x00, 0x00, 0x48, 0x00, 0x00, 0x00,
  0x09, 0x00, 0x00, 0x00, 0x00, 0x00, 0x00, 0x09, 0xa0, 0x00, 0x00, 0x00,
  0x04, 0x00, 0x00, 0x00, 0xff, 0xff, 0xff, 0xff, 0x0e, 0x00, 0x00, 0x00,
  0x0e, 0x00, 0x00, 0x00, 0x08, 0x00, 0x00, 0x00, 0x84, 0xf9, 0xff, 0xff,
  0x08, 0x00, 0x00, 0x00, 0x14, 0x00, 0x00, 0x00, 0x01, 0x00, 0x00, 0x00,
  0x80, 0xff, 0xff, 0xff, 0xff, 0xff, 0xff, 0xff, 0x00, 0x00, 0x00, 0x00,
  0x01, 0x00, 0x00, 0x00, 0xcf, 0x34, 0xac, 0x3d, 0x5c, 0x00, 0x00, 0x00,
  0x73, 0x65, 0x71, 0x75, 0x65, 0x6e, 0x74, 0x69, 0x61, 0x6c, 0x5f, 0x31,
  0x2f, 0x63, 0x6f, 0x6e, 0x76, 0x32, 0x64, 0x5f, 0x31, 0x2f, 0x52, 0x65,
  0x6c, 0x75, 0x3b, 0x73, 0x65, 0x71, 0x75, 0x65, 0x6e, 0x74, 0x69, 0x61,
  0x6c, 0x5f, 0x31, 0x2f, 0x63, 0x6f, 0x6e, 0x76, 0x32, 0x64, 0x5f, 0x31,
  0x2f, 0x42, 0x69, 0x61, 0x73, 0x41, 0x64, 0x64, 0x3b, 0x73, 0x65, 0x71,
  0x75, 0x65, 0x6e, 0x74, 0x69, 0x61, 0x6c, 0x5f, 0x31, 0x2f, 0x63, 0x6f,
  0x6e, 0x76, 0x32, 0x64, 0x5f, 0x31, 0x2f, 0x63, 0x6f, 0x6e, 0x76, 0x6f,
  0x6c, 0x75, 0x74, 0x69, 0x6f, 0x6e, 0x3b, 0x31, 0x00, 0x00, 0x00, 0x00,
  0x04, 0x00, 0x00, 0x00, 0x01, 0x00, 0x00, 0x00, 0x0e, 0x00, 0x00, 0x00,
  0x0e, 0x00, 0x00, 0x00, 0x08, 0x00, 0x00, 0x00, 0xc2, 0xfa, 0xff, 0xff,
  0x00, 0x00, 0x00, 0x01, 0x14, 0x00, 0x00, 0x00, 0x88, 0x00, 0x00, 0x00,
  0x08, 0x00, 0x00, 0x00, 0x00, 0x00, 0x00, 0x09, 0x94, 0x00, 0x00, 0x00,
  0x3c, 0xfa, 0xff, 0xff, 0x08, 0x00, 0x00, 0x00, 0x4c, 0x00, 0x00, 0x00,
  0x08, 0x00, 0x00, 0x00, 0x00, 0x00, 0x00, 0x00, 0x00, 0x00, 0x00, 0x00,
  0x00, 0x00, 0x00, 0x00, 0x00, 0x00, 0x00, 0x00, 0x00, 0x00, 0x00, 0x00,
  0x00, 0x00, 0x00, 0x00, 0x00, 0x00, 0x00, 0x00, 0x00, 0x00, 0x00, 0x00,
  0x00, 0x00, 0x00, 0x00, 0x00, 0x00, 0x00, 0x00, 0x00, 0x00, 0x00, 0x00,
  0x00, 0x00, 0x00, 0x00, 0x00, 0x00, 0x00, 0x00, 0x00, 0x00, 0x00, 0x00,
  0x00, 0x00, 0x00, 0x00, 0x00, 0x00, 0x00, 0x00, 0x00, 0x00, 0x00, 0x00,
  0x08, 0x00, 0x00, 0x00, 0x54, 0x75, 0x61, 0x3c, 0xfe, 0x23, 0xf3, 0x3c,
  0xcc, 0xc0, 0x76, 0x3c, 0x0c, 0x20, 0x84, 0x3c, 0xe4, 0x72, 0x82, 0x3c,
  0x73, 0x80, 0x96, 0x3c, 0x5c, 0xc8, 0x96, 0x3c, 0x54, 0x5f, 0xac, 0x3c,
  0x12, 0x00, 0x00, 0x00, 0x74, 0x66, 0x6c, 0x2e, 0x70, 0x73, 0x65, 0x75,
  0x64, 0x6f, 0x5f, 0x71, 0x63, 0x6f, 0x6e, 0x73, 0x74, 0x35, 0x00, 0x00,
  0x04, 0x00, 0x00, 0x00, 0x08, 0x00, 0x00, 0x00, 0x03, 0x00, 0x00, 0x00,
  0x03, 0x00, 0x00, 0x00, 0x01, 0x00, 0x00, 0x00, 0x82, 0xfb, 0xff, 0xff,
  0x00, 0x00, 0x00, 0x01, 0x14, 0x00, 0x00, 0x00, 0x84, 0x00, 0x00, 0x00,
  0x07, 0x00, 0x00, 0x00, 0x00, 0x00, 0x00, 0x02, 0x90, 0x00, 0x00, 0x00,
  0xfc, 0xfa, 0xff, 0xff, 0x08, 0x00, 0x00, 0x00, 0x48, 0x00, 0x00, 0x00,
  0x08, 0x00, 0x00, 0x00, 0x00, 0x00, 0x00, 0x00, 0x00, 0x00, 0x00, 0x00,
  0x00, 0x00, 0x00, 0x00, 0x00, 0x00, 0x00, 0x00, 0x00, 0x00, 0x00, 0x00,
  0x00, 0x00, 0x00, 0x00, 0x00, 0x00, 0x00, 0x00, 0x00, 0x00, 0x00, 0x00,
  0x00, 0x00, 0x00, 0x00, 0x00, 0x00, 0x00, 0x00, 0x00, 0x00, 0x00, 0x00,
  0x00, 0x00, 0x00, 0x00, 0x00, 0x00, 0x00, 0x00, 0x00, 0x00, 0x00, 0x00,
  0x00, 0x00, 0x00, 0x00, 0x00, 0x00, 0x00, 0x00, 0x08, 0x00, 0x00, 0x00,
  0xad, 0x57, 0x62, 0x38, 0x17, 0x18, 0xf4, 0x38, 0x85, 0xb8, 0x77, 0x38,
  0xb1, 0xa4, 0x84, 0x38, 0xda, 0xf5, 0x82, 0x38, 0x8b, 0x17, 0x97, 0x38,
  0xbc, 0x5f, 0x97, 0x38, 0x61, 0x0c, 0xad, 0x38, 0x12, 0x00, 0x00, 0x00,
  0x74, 0x66, 0x6c, 0x2e, 0x70, 0x73, 0x65, 0x75, 0x64, 0x6f, 0x5f, 0x71,
  0x63, 0x6f, 0x6e, 0x73, 0x74, 0x34, 0x00, 0x00, 0x01, 0x00, 0x00, 0x00,
  0x08, 0x00, 0x00, 0x00, 0x32, 0xfc, 0xff, 0xff, 0x00, 0x00, 0x00, 0x01,
  0x14, 0x00, 0x00, 0x00, 0xe8, 0x00, 0x00, 0x00, 0x06, 0x00, 0x00, 0x00,
  0x00, 0x00, 0x00, 0x09, 0xf4, 0x00, 0x00, 0x00, 0xac, 0xfb, 0xff, 0xff,
  0x08, 0x00, 0x00, 0x00, 0x8c, 0x00, 0x00, 0x00, 0x10, 0x00, 0x00, 0x00,
  0x00, 0x00, 0x00, 0x00, 0x00, 0x00, 0x00, 0x00, 0x00, 0x00, 0x00, 0x00,
  0x00, 0x00, 0x00, 0x00, 0x00, 0x00, 0x00, 0x00, 0x00, 0x00, 0x00, 0x00,
  0x00, 0x00, 0x00, 0x00, 0x00, 0x00, 0x00, 0x00, 0x00, 0x00, 0x00, 0x00,
  0x00, 0x00, 0x00, 0x00, 0x00, 0x00, 0x00, 0x00, 0x00, 0x00, 0x00, 0x00,
  0x00, 0x00, 0x00, 0x00, 0x00, 0x00, 0x00, 0x00, 0x00, 0x00, 0x00, 0x00,
  0x00, 0x00, 0x00, 0x00, 0x00, 0x00, 0x00, 0x00, 0x00, 0x00, 0x00, 0x00,
  0x00, 0x00, 0x00, 0x00, 0x00, 0x00, 0x00, 0x00, 0x00, 0x00, 0x00, 0x00,
  0x00, 0x00, 0x00, 0x00, 0x00, 0x00, 0x00, 0x00, 0x00, 0x00, 0x00, 0x00,
  0x00, 0x00, 0x00, 0x00, 0x00, 0x00, 0x00, 0x00, 0x00, 0x00, 0x00, 0x00,
  0x00, 0x00, 0x00, 0x00, 0x00, 0x00, 0x00, 0x00, 0x00, 0x00, 0x00, 0x00,
  0x00, 0x00, 0x00, 0x00, 0x00, 0x00, 0x00, 0x00, 0x00, 0x00, 0x00, 0x00,
  0x10, 0x00, 0x00, 0x00, 0x34, 0xc7, 0x90, 0x3c, 0xd1, 0xcb, 0x73, 0x3c,
  0x55, 0x0d, 0x13, 0x3c, 0xb5, 0x8a, 0x2f, 0x3d, 0xf4, 0x60, 0x21, 0x3d,
  0xb1, 0x6f, 0xfb, 0x3c, 0x98, 0x57, 0x64, 0x3c, 0x64, 0xb0, 0x42, 0x3d,
  0xc7, 0x7c, 0x4e, 0x3d, 0xa6, 0x7f, 0xb6, 0x3c, 0x0c, 0x4e, 0x74, 0x3c,
  0xe4, 0xb7, 0x92, 0x3c, 0x6e, 0x1b, 0xfe, 0x3c, 0x07, 0x2b, 0xdf, 0x3c,
  0xaa, 0x19, 0x92, 0x3c, 0xba, 0xa3, 0x9a, 0x3c, 0x12, 0x00, 0x00, 0x00,
  0x74, 0x66, 0x6c, 0x2e, 0x70, 0x73, 0x65, 0x75, 0x64, 0x6f, 0x5f, 0x71,
  0x63, 0x6f, 0x6e, 0x73, 0x74, 0x33, 0x00, 0x00, 0x04, 0x00, 0x00, 0x00,
  0x10, 0x00, 0x00, 0x00, 0x03, 0x00, 0x00, 0x00, 0x03, 0x00, 0x00, 0x00,
  0x08, 0x00, 0x00, 0x00, 0x52, 0xfd, 0xff, 0xff, 0x00, 0x00, 0x00, 0x01,
  0x14, 0x00, 0x00, 0x00, 0xe4, 0x00, 0x00, 0x00, 0x05, 0x00, 0x00, 0x00,
  0x00, 0x00, 0x00, 0x02, 0xf0, 0x00, 0x00, 0x00, 0xcc, 0xfc, 0xff, 0xff,
  0x08, 0x00, 0x00, 0x00, 0x88, 0x00, 0x00, 0x00, 0x10, 0x00, 0x00, 0x00,
  0x00, 0x00, 0x00, 0x00, 0x00, 0x00, 0x00, 0x00, 0x00, 0x00, 0x00, 0x00,
  0x00, 0x00, 0x00, 0x00, 0x00, 0x00, 0x00, 0x00, 0x00, 0x00, 0x00, 0x00,
  0x00, 0x00, 0x00, 0x00, 0x00, 0x00, 0x00, 0x00, 0x00, 0x00, 0x00, 0x00,
  0x00, 0x00, 0x00, 0x00, 0x00, 0x00, 0x00, 0x00, 0x00, 0x00, 0x00, 0x00,
  0x00, 0x00, 0x00, 0x00, 0x00, 0x00, 0x00, 0x00, 0x00, 0x00, 0x00, 0x00,
  0x00, 0x00, 0x00, 0x00, 0x00, 0x00, 0x00, 0x00, 0x00, 0x00, 0x00, 0x00,
  0x00, 0x00, 0x00, 0x00, 0x00, 0x00, 0x00, 0x00, 0x00, 0x00, 0x00, 0x00,
  0x00, 0x00, 0x00, 0x00, 0x00, 0x00, 0x00, 0x00, 0x00, 0x00, 0x00, 0x00,
  0x00, 0x00, 0x00, 0x00, 0x00, 0x00, 0x00, 0x00, 0x00, 0x00, 0x00, 0x00,
  0x00, 0x00, 0x00, 0x00, 0x00, 0x00, 0x00, 0x00, 0x00, 0x00, 0x00, 0x00,
  0x00, 0x00, 0x00, 0x00, 0x00, 0x00, 0x00, 0x00, 0x10, 0x00, 0x00, 0x00,
  0x69, 0xc7, 0xc2, 0x3a, 0x3b, 0xff, 0xa3, 0x3a, 0x95, 0xd6, 0x45, 0x3a,
  0xcf, 0x2a, 0x6c, 0x3b, 0xdc, 0x1c, 0x59, 0x3b, 0xe9, 0x22, 0x29, 0x3b,
  0xf5, 0x99, 0x99, 0x3a, 0xac, 0xf6, 0x82, 0x3b, 0x6e, 0xe6, 0x8a, 0x3b,
  0xd2, 0x86, 0xf5, 0x3a, 0xd5, 0x56, 0xa4, 0x3a, 0xa2, 0x63, 0xc5, 0x3a,
  0xd9, 0xee, 0x2a, 0x3b, 0xf2, 0x1e, 0x16, 0x3b, 0xc3, 0x8e, 0xc4, 0x3a,
  0xcf, 0x0b, 0xd0, 0x3a, 0x12, 0x00, 0x00, 0x00, 0x74, 0x66, 0x6c, 0x2e,
  0x70, 0x73, 0x65, 0x75, 0x64, 0x6f, 0x5f, 0x71, 0x63, 0x6f, 0x6e, 0x73,
  0x74, 0x32, 0x00, 0x00, 0x01, 0x00, 0x00, 0x00, 0x10, 0x00, 0x00, 0x00,
  0x62, 0xfe, 0xff, 0xff, 0x00, 0x00, 0x00, 0x01, 0x14, 0x00, 0x00, 0x00,
  0xa0, 0x00, 0x00, 0x00, 0x04, 0x00, 0x00, 0x00, 0x00, 0x00, 0x00, 0x09,
  0xac, 0x00, 0x00, 0x00, 0xdc, 0xfd, 0xff, 0xff, 0x08, 0x00, 0x00, 0x00,
  0x5c, 0x00, 0x00, 0x00, 0x0a, 0x00, 0x00, 0x00, 0x00, 0x00, 0x00, 0x00,
  0x00, 0x00, 0x00, 0x00, 0x00, 0x00, 0x00, 0x00, 0x00, 0x00, 0x00, 0x00,
  0x00, 0x00, 0x00, 0x00, 0x00, 0x00, 0x00, 0x00, 0x00, 0x00, 0x00, 0x00,
  0x00, 0x00, 0x00, 0x00, 0x00, 0x00, 0x00, 0x00, 0x00, 0x00, 0x00, 0x00,
  0x00, 0x00, 0x00, 0x00, 0x00, 0x00, 0x00, 0x00, 0x00, 0x00, 0x00, 0x00,
  0x00, 0x00, 0x00, 0x00, 0x00, 0x00, 0x00, 0x00, 0x00, 0x00, 0x00, 0x00,
  0x00, 0x00, 0x00, 0x00, 0x00, 0x00, 0x00, 0x00, 0x00, 0x00, 0x00, 0x00,
  0x00, 0x00, 0x00, 0x00, 0x00, 0x00, 0x00, 0x00, 0x0a, 0x00, 0x00, 0x00,
  0x91, 0x20, 0x83, 0x3c, 0x48, 0x1c, 0x3c, 0x3c, 0x5d, 0x8b, 0xe0, 0x3b,
  0xcd, 0xd8, 0x86, 0x3c, 0xd9, 0x0e, 0xcf, 0x3c, 0xaa, 0x56, 0x28, 0x3c,
  0x48, 0x71, 0x93, 0x3c, 0x69, 0x6c, 0xe1, 0x3c, 0x09, 0x72, 0x65, 0x3c,
  0xfb, 0x0d, 0x5d, 0x3c, 0x12, 0x00, 0x00, 0x00, 0x74, 0x66, 0x6c, 0x2e,
  0x70, 0x73, 0x65, 0x75, 0x64, 0x6f, 0x5f, 0x71, 0x63, 0x6f, 0x6e, 0x73,
  0x74, 0x31, 0x00, 0x00, 0x02, 0x00, 0x00, 0x00, 0x0a, 0x00, 0x00, 0x00,
  0x10, 0x00, 0x00, 0x00, 0x32, 0xff, 0xff, 0xff, 0x00, 0x00, 0x00, 0x01,
  0x14, 0x00, 0x00, 0x00, 0xa0, 0x00, 0x00, 0x00, 0x03, 0x00, 0x00, 0x00,
  0x00, 0x00, 0x00, 0x02, 0xac, 0x00, 0x00, 0x00, 0xac, 0xfe, 0xff, 0xff,
  0x08, 0x00, 0x00, 0x00, 0x5c, 0x00, 0x00, 0x00, 0x0a, 0x00, 0x00, 0x00,
  0x00, 0x00, 0x00, 0x00, 0x00, 0x00, 0x00, 0x00, 0x00, 0x00, 0x00, 0x00,
  0x00, 0x00, 0x00, 0x00, 0x00, 0x00, 0x00, 0x00, 0x00, 0x00, 0x00, 0x00,
  0x00, 0x00, 0x00, 0x00, 0x00, 0x00, 0x00, 0x00, 0x00, 0x00, 0x00, 0x00,
  0x00, 0x00, 0x00, 0x00, 0x00, 0x00, 0x00, 0x00, 0x00, 0x00, 0x00, 0x00,
  0x00, 0x00, 0x00, 0x00, 0x00, 0x00, 0x00, 0x00, 0x00, 0x00, 0x00, 0x00,
  0x00, 0x00, 0x00, 0x00, 0x00, 0x00, 0x00, 0x00, 0x00, 0x00, 0x00, 0x00,
  0x00, 0x00, 0x00, 0x00, 0x00, 0x00, 0x00, 0x00, 0x00, 0x00, 0x00, 0x00,
  0x0a, 0x00, 0x00, 0x00, 0x1b, 0x92, 0xc3, 0x3a, 0x89, 0x47, 0x8c, 0x3a,
  0x02, 0x73, 0x27, 0x3a, 0x53, 0x1e, 0xc9, 0x3a, 0xbe, 0x68, 0x1a, 0x3b,
  0xe1, 0x11, 0x7b, 0x3a, 0x80, 0xe7, 0xdb, 0x3a, 0xd5, 0x1a, 0x28, 0x3b,
  0xa8, 0x1a, 0xab, 0x3a, 0xca, 0xd8, 0xa4, 0x3a, 0x11, 0x00, 0x00, 0x00,
  0x74, 0x66, 0x6c, 0x2e, 0x70, 0x73, 0x65, 0x75, 0x64, 0x6f, 0x5f, 0x71,
  0x63, 0x6f, 0x6e, 0x73, 0x74, 0x00, 0x00, 0x00, 0x01, 0x00, 0x00, 0x00,
  0x0a, 0x00, 0x00, 0x00, 0x00, 0x00, 0x16, 0x00, 0x1c, 0x00, 0x18, 0x00,
  0x17, 0x00, 0x10, 0x00, 0x0c, 0x00, 0x08, 0x00, 0x00, 0x00, 0x00, 0x00,
  0x00, 0x00, 0x07, 0x00, 0x16, 0x00, 0x00, 0x00, 0x00, 0x00, 0x00, 0x01,
  0x18, 0x00, 0x00, 0x00, 0x18, 0x00, 0x00, 0x00, 0x02, 0x00, 0x00, 0x00,
  0x00, 0x00, 0x00, 0x02, 0x20, 0x00, 0x00, 0x00, 0x04, 0x00, 0x04, 0x00,
  0x04, 0x00, 0x00, 0x00, 0x0e, 0x00, 0x00, 0x00, 0x61, 0x72, 0x69, 0x74,
  0x68, 0x2e, 0x63, 0x6f, 0x6e, 0x73, 0x74, 0x61, 0x6e, 0x74, 0x00, 0x00,
  0x01, 0x00, 0x00, 0x00, 0x02, 0x00, 0x00, 0x00, 0x00, 0x00, 0x16, 0x00,
  0x20, 0x00, 0x1c, 0x00, 0x1b, 0x00, 0x14, 0x00, 0x10, 0x00, 0x0c, 0x00,
  0x00, 0x00, 0x00, 0x00, 0x08, 0x00, 0x07, 0x00, 0x16, 0x00, 0x00, 0x00,
  0x00, 0x00, 0x00, 0x01, 0x18, 0x00, 0x00, 0x00, 0x34, 0x00, 0x00, 0x00,
  0x50, 0x00, 0x00, 0x00, 0x01, 0x00, 0x00, 0x00, 0x00, 0x00, 0x00, 0x09,
  0x68, 0x00, 0x00, 0x00, 0x04, 0x00, 0x00, 0x00, 0xff, 0xff, 0xff, 0xff,
  0x1c, 0x00, 0x00, 0x00, 0x1c, 0x00, 0x00, 0x00, 0x01, 0x00, 0x00, 0x00,
  0x0c, 0x00, 0x0c, 0x00, 0x00, 0x00, 0x00, 0x00, 0x08, 0x00, 0x04, 0x00,
  0x0c, 0x00, 0x00, 0x00, 0x08, 0x00, 0x00, 0x00, 0x10, 0x00, 0x00, 0x00,
  0x01, 0x00, 0x00, 0x00, 0x80, 0xff, 0xff, 0xff, 0xff, 0xff, 0xff, 0xff,
  0x01, 0x00, 0x00, 0x00, 0x81, 0x80, 0x80, 0x3b, 0x1e, 0x00, 0x00, 0x00,
  0x73, 0x65, 0x72, 0x76, 0x69, 0x6e, 0x67, 0x5f, 0x64, 0x65, 0x66, 0x61,
  0x75, 0x6c, 0x74, 0x5f, 0x6b, 0x65, 0x72, 0x61, 0x73, 0x5f, 0x74, 0x65,
  0x6e, 0x73, 0x6f, 0x72, 0x3a, 0x30, 0x00, 0x00, 0x04, 0x00, 0x00, 0x00,
  0x01, 0x00, 0x00, 0x00, 0x1c, 0x00, 0x00, 0x00, 0x1c, 0x00, 0x00, 0x00,
  0x01, 0x00, 0x00, 0x00, 0x04, 0x00, 0x00, 0x00, 0x4c, 0x00, 0x00, 0x00,
  0x2c, 0x00, 0x00, 0x00, 0x18, 0x00, 0x00, 0x00, 0x04, 0x00, 0x00, 0x00,
  0xd0, 0xff, 0xff, 0xff, 0x19, 0x00, 0x00, 0x00, 0x02, 0x00, 0x00, 0x00,
  0x00, 0x00, 0x00, 0x19, 0xe0, 0xff, 0xff, 0xff, 0x09, 0x00, 0x00, 0x00,
  0x04, 0x00, 0x00, 0x00, 0x00, 0x00, 0x00, 0x09, 0xf0, 0xff, 0xff, 0xff,
  0x28, 0x00, 0x00, 0x00, 0x02, 0x00, 0x00, 0x00, 0x00, 0x00, 0x00, 0x28,
  0x0c, 0x00, 0x10, 0x00, 0x0f, 0x00, 0x00, 0x00, 0x08, 0x00, 0x04, 0x00,
  0x0c, 0x00, 0x00, 0x00, 0x03, 0x00, 0x00, 0x00, 0x03, 0x00, 0x00, 0x00,
  0x00, 0x00, 0x00, 0x03,
};
const unsigned int mnist_cnn_int8_model_len = 5200;
